#include "network_data.h"

ai_handle ai_network_data_weights_get(void)
{

  AI_ALIGNED(4)
  static const ai_u8 s_network_weights[ 604 ] = {
    0x84, 0x60, 0xfa, 0xbe, 0x76, 0xf4, 0xc3, 0xbe, 0xd5, 0xac,
    0x9e, 0xbe, 0x71, 0x5b, 0x62, 0xbe, 0x75, 0x2a, 0x16, 0xbe,
    0xa7, 0x68, 0x79, 0xbd, 0x5f, 0xa7, 0x9a, 0x3c, 0xc2, 0x10,
    0xc4, 0x3d, 0x2e, 0x71, 0x26, 0x3e, 0x56, 0xe6, 0x61, 0x3e,
    0xd8, 0x8f, 0x9b, 0x3e, 0x2b, 0x22, 0xc5, 0x3e, 0x83, 0xa9,
    0x02, 0x3f, 0x5a, 0x46, 0x1c, 0x3f, 0xd4, 0x7b, 0x2f, 0x3f,
    0xc1, 0x56, 0x47, 0x3f, 0x43, 0x95, 0x74, 0x97, 0x46, 0x86,
    0x84, 0x49, 0x98, 0x57, 0x96, 0x65, 0x65, 0x88, 0x43, 0x67,
    0x47, 0x54, 0x47, 0x44, 0x65, 0x43, 0x37, 0x35, 0x53, 0x45,
    0x66, 0x55, 0x77, 0x96, 0x78, 0x36, 0x43, 0x55, 0x78, 0x47,
    0x87, 0x34, 0x68, 0x55, 0x63, 0x74, 0x98, 0x64, 0x85, 0x47,
    0x47, 0x67, 0x96, 0x78, 0xba, 0xce, 0xad, 0xad, 0xdd, 0xcc,
    0xc9, 0x77, 0x9a, 0x87, 0x96, 0x57, 0x42, 0x33, 0x54, 0x23,
    0x16, 0x55, 0x33, 0x04, 0x12, 0x12, 0x32, 0x66, 0x21, 0x15,
    0x63, 0x25, 0x57, 0x58, 0x7a, 0x95, 0x56, 0x65, 0x96, 0xaa,
    0x77, 0x5b, 0xa5, 0xb7, 0x68, 0xa7, 0x8a, 0x9b, 0x67, 0xb7,
    0x8b, 0xa6, 0x98, 0xa6, 0x87, 0x79, 0x38, 0x95, 0x96, 0x36,
    0x33, 0x95, 0x36, 0x36, 0x99, 0x66, 0x88, 0x75, 0x54, 0x33,
    0x73, 0x76, 0x94, 0x37, 0x76, 0x73, 0x47, 0x55, 0x86, 0x47,
    0x85, 0x37, 0x74, 0x77, 0x47, 0x54, 0x67, 0x73, 0x57, 0x73,
    0x83, 0x89, 0x93, 0x83, 0x88, 0x46, 0x87, 0x97, 0x66, 0x34,
    0x43, 0x53, 0x96, 0x57, 0xfd, 0xab, 0xac, 0xdd, 0xb9, 0xab,
    0xbc, 0x97, 0x88, 0x97, 0xa7, 0x47, 0x52, 0x54, 0x23, 0x44,
    0x63, 0x16, 0x56, 0x62, 0x11, 0x55, 0x64, 0x64, 0x42, 0x72,
    0x22, 0x46, 0x97, 0x45, 0x58, 0x7a, 0x95, 0x6b, 0xa9, 0x7a,
    0xa8, 0x5a, 0xba, 0x69, 0x87, 0xba, 0x67, 0x9b, 0x69, 0x76,
    0x99, 0x88, 0x6a, 0x89, 0x56, 0x87, 0x93, 0x88, 0x77, 0x33,
    0x49, 0x77, 0x67, 0x37, 0x97, 0x67, 0x93, 0x49, 0x63, 0x74,
    0x64, 0x35, 0x34, 0x55, 0x86, 0x69, 0x88, 0x34, 0x38, 0x57,
    0x83, 0x45, 0x46, 0x85, 0x77, 0x45, 0x99, 0x57, 0x67, 0x65,
    0x43, 0x89, 0x46, 0x44, 0x54, 0x65, 0x76, 0x79, 0x43, 0x73,
    0x46, 0x67, 0x56, 0x38, 0x00, 0x00, 0xaa, 0x0a, 0xb7, 0xbb,
    0x40, 0xa6, 0xd9, 0xbe, 0x00, 0x00, 0x00, 0x00, 0x37, 0x58,
    0xcc, 0xbe, 0x00, 0x00, 0x00, 0x00, 0x24, 0x11, 0x16, 0xbf,
    0x96, 0x27, 0x02, 0xbf, 0x02, 0xd7, 0xc2, 0xbe, 0x54, 0xc6,
    0xa3, 0xbe, 0xea, 0x9f, 0x26, 0xbe, 0xcc, 0x5a, 0x7b, 0xbc,
    0x79, 0x0a, 0x8a, 0x3d, 0x98, 0x98, 0x5b, 0x3e, 0x4d, 0x95,
    0xa0, 0x3e, 0xa3, 0x53, 0xdb, 0x3e, 0xd7, 0x28, 0x07, 0x3f,
    0x65, 0xe4, 0x1e, 0x3f, 0x1c, 0xb0, 0x49, 0x3f, 0xd6, 0x65,
    0x5d, 0x3f, 0x45, 0xe2, 0x82, 0x3f, 0xae, 0xe3, 0x8f, 0x3f,
    0x11, 0x9d, 0x50, 0xa5, 0x00, 0x90, 0x3f, 0x5c, 0x50, 0x2b,
    0xa9, 0x90, 0x2f, 0x6c, 0x90, 0x59, 0x78, 0x50, 0x44, 0x81,
    0x00, 0x00, 0x22, 0x30, 0x16, 0x4a, 0x00, 0x1c, 0x7d, 0x60,
    0x00, 0x00, 0x86, 0xda, 0x69, 0x3f, 0x00, 0x00, 0x00, 0x00,
    0x44, 0x4b, 0x05, 0xbf, 0x61, 0xa1, 0x45, 0xbf, 0x80, 0x8b,
    0x51, 0xbe, 0xfa, 0xa0, 0x18, 0xbf, 0x00, 0x00, 0x00, 0x00,
    0x00, 0x00, 0x00, 0x00, 0x6d, 0xba, 0x21, 0xbf, 0x5e, 0xa8,
    0x1f, 0xbf, 0x65, 0x0a, 0x8e, 0x3e, 0xc0, 0xf0, 0xca, 0x3d,
    0xff, 0xad, 0x81, 0xbd, 0x0d, 0x77, 0xbc, 0xbf, 0xda, 0xb1,
    0x99, 0xbe, 0x04, 0xb1, 0x87, 0xbf, 0x32, 0x26, 0x54, 0xbe,
    0xd1, 0x0b, 0xe6, 0xbe, 0x14, 0x81, 0xc6, 0xbf, 0xbd, 0x5c,
    0xa6, 0xbe, 0x75, 0x3e, 0x9e, 0xbf, 0x08, 0xd0, 0x29, 0x3f,
    0x64, 0xff, 0x7c, 0xbc, 0xf5, 0x3f, 0x91, 0x3f, 0xd2, 0xa0,
    0xca, 0xbe, 0x51, 0xcc, 0xb9, 0x3f, 0xec, 0x71, 0x73, 0x3e,
    0xa3, 0xb0, 0x83, 0xbe, 0xb9, 0xd9, 0xaa, 0x3f, 0x55, 0x95,
    0x5d, 0x3e, 0x3f, 0xeb, 0x5f, 0x3f, 0x40, 0xaa, 0xf9,
    0x3d, 0x52, 0x5d, 0xc5, 0xbf, 0x3b, 0x45, 0x9e, 0xbf,
    0x62, 0xd7, 0xad, 0xbf, 0x79, 0x89, 0x47, 0xbf, 0x24,
    0x73, 0xb1, 0xbe, 0x3c, 0x58, 0x15, 0x3f, 0x79, 0xb3,
    0x75, 0xbf, 0xc6, 0x3b, 0xae, 0xbf, 0x39, 0x0d, 0x06,
    0x3e, 0x31, 0xa2, 0x76, 0xbf, 0x99, 0x37, 0x7e, 0x3e
  };

  return AI_HANDLE_PTR(s_network_weights);

}

